const unsigned char model_float_tflite[] = {
  0x1c, 0x00, 0x00, 0x00, 0x54, 0x46, 0x4c, 0x33, 0x14, 0x00, 0x20, 0x00, 
  0x1c, 0x00, 0x18, 0x00, 0x14, 0x00, 0x10, 0x00, 0x0c, 0x00, 0x00, 0x00, 
  0x08, 0x00, 0x04, 0x00, 0x14, 0x00, 0x00, 0x00, 0x1c, 0x00, 0x00, 0x00, 
  0x98, 0x00, 0x00, 0x00, 0xf0, 0x00, 0x00, 0x00, 0x14, 0x07, 0x00, 0x00, 
  0x24, 0x07, 0x00, 0x00, 0x18, 0x0c, 0x00, 0x00, 0x03, 0x00, 0x00, 0x00, 
  0x01, 0x00, 0x00, 0x00, 0x10, 0x00, 0x00, 0x00, 0x00, 0x00, 0x0a, 0x00, 
  0x10, 0x00, 0x0c, 0x00, 0x08, 0x00, 0x04, 0x00, 0x0a, 0x00, 0x00, 0x00, 
  0x0c, 0x00, 0x00, 0x00, 0x1c, 0x00, 0x00, 0x00, 0x3c, 0x00, 0x00, 0x00, 
  0x0f, 0x00, 0x00, 0x00, 0x73, 0x65, 0x72, 0x76, 0x69, 0x6e, 0x67, 0x5f, 
  0x64, 0x65, 0x66, 0x61, 0x75, 0x6c, 0x74, 0x00, 0x01, 0x00, 0x00, 0x00, 
  0x04, 0x00, 0x00, 0x00, 0x90, 0xff, 0xff, 0xff, 0x09, 0x00, 0x00, 0x00, 
  0x04, 0x00, 0x00, 0x00, 0x08, 0x00, 0x00, 0x00, 0x6f, 0x75, 0x74, 0x70, 
  0x75, 0x74, 0x5f, 0x30, 0x00, 0x00, 0x00, 0x00, 0x01, 0x00, 0x00, 0x00, 
  0x04, 0x00, 0x00, 0x00, 0xba, 0xf9, 0xff, 0xff, 0x04, 0x00, 0x00, 0x00, 
  0x0f, 0x00, 0x00, 0x00, 0x6b, 0x65, 0x72, 0x61, 0x73, 0x5f, 0x74, 0x65, 
  0x6e, 0x73, 0x6f, 0x72, 0x5f, 0x32, 0x34, 0x00, 0x02, 0x00, 0x00, 0x00, 
  0x34, 0x00, 0x00, 0x00, 0x04, 0x00, 0x00, 0x00, 0xdc, 0xff, 0xff, 0xff, 
  0x0c, 0x00, 0x00, 0x00, 0x04, 0x00, 0x00, 0x00, 0x13, 0x00, 0x00, 0x00, 
  0x43, 0x4f, 0x4e, 0x56, 0x45, 0x52, 0x53, 0x49, 0x4f, 0x4e, 0x5f, 0x4d, 
  0x45, 0x54, 0x41, 0x44, 0x41, 0x54, 0x41, 0x00, 0x08, 0x00, 0x0c, 0x00, 
  0x08, 0x00, 0x04, 0x00, 0x08, 0x00, 0x00, 0x00, 0x0b, 0x00, 0x00, 0x00, 
  0x04, 0x00, 0x00, 0x00, 0x13, 0x00, 0x00, 0x00, 0x6d, 0x69, 0x6e, 0x5f, 
  0x72, 0x75, 0x6e, 0x74, 0x69, 0x6d, 0x65, 0x5f, 0x76, 0x65, 0x72, 0x73, 
  0x69, 0x6f, 0x6e, 0x00, 0x0d, 0x00, 0x00, 0x00, 0x20, 0x06, 0x00, 0x00, 
  0x18, 0x06, 0x00, 0x00, 0xc8, 0x05, 0x00, 0x00, 0xb0, 0x01, 0x00, 0x00, 
  0x9c, 0x01, 0x00, 0x00, 0x4c, 0x01, 0x00, 0x00, 0xfc, 0x00, 0x00, 0x00, 
  0xac, 0x00, 0x00, 0x00, 0xa4, 0x00, 0x00, 0x00, 0x9c, 0x00, 0x00, 0x00, 
  0x94, 0x00, 0x00, 0x00, 0x74, 0x00, 0x00, 0x00, 0x04, 0x00, 0x00, 0x00, 
  0x6a, 0xfa, 0xff, 0xff, 0x04, 0x00, 0x00, 0x00, 0x60, 0x00, 0x00, 0x00, 
  0x10, 0x00, 0x00, 0x00, 0x00, 0x00, 0x00, 0x00, 0x08, 0x00, 0x0e, 0x00, 
  0x08, 0x00, 0x04, 0x00, 0x08, 0x00, 0x00, 0x00, 0x10, 0x00, 0x00, 0x00, 
  0x24, 0x00, 0x00, 0x00, 0x00, 0x00, 0x06, 0x00, 0x08, 0x00, 0x04, 0x00, 
  0x06, 0x00, 0x00, 0x00, 0x04, 0x00, 0x00, 0x00, 0x00, 0x00, 0x00, 0x00, 
  0x0c, 0x00, 0x18, 0x00, 0x14, 0x00, 0x10, 0x00, 0x0c, 0x00, 0x04, 0x00, 
  0x0c, 0x00, 0x00, 0x00, 0xec, 0xb7, 0xa8, 0x9a, 0xd0, 0xf4, 0x0a, 0xe3, 
  0x02, 0x00, 0x00, 0x00, 0x02, 0x00, 0x00, 0x00, 0x04, 0x00, 0x00, 0x00, 
  0x06, 0x00, 0x00, 0x00, 0x32, 0x2e, 0x31, 0x39, 0x2e, 0x30, 0x00, 0x00, 
  0xd6, 0xfa, 0xff, 0xff, 0x04, 0x00, 0x00, 0x00, 0x10, 0x00, 0x00, 0x00, 
  0x31, 0x2e, 0x35, 0x2e, 0x30, 0x00, 0x00, 0x00, 0x00, 0x00, 0x00, 0x00, 
  0x00, 0x00, 0x00, 0x00, 0xc8, 0xf5, 0xff, 0xff, 0xcc, 0xf5, 0xff, 0xff, 
  0xd0, 0xf5, 0xff, 0xff, 0xfe, 0xfa, 0xff, 0xff, 0x04, 0x00, 0x00, 0x00, 
  0x40, 0x00, 0x00, 0x00, 0x30, 0x69, 0x74, 0xbe, 0x25, 0xa0, 0x06, 0x3f, 
  0xa0, 0xd7, 0x99, 0xbd, 0xa9, 0xed, 0x21, 0x3d, 0x17, 0x34, 0xd9, 0x3e, 
  0xf1, 0x56, 0xee, 0x3e, 0xb7, 0x9e, 0xf6, 0xbb, 0x6c, 0x31, 0xe3, 0x3e, 
  0xa4, 0x69, 0xc2, 0x3e, 0x30, 0xe1, 0x29, 0xbd, 0x71, 0xd8, 0x9c, 0xbe, 
  0xd2, 0x92, 0x07, 0x3f, 0x88, 0x86, 0x7a, 0xbe, 0x13, 0x68, 0xba, 0xbd, 
  0xd2, 0x07, 0x13, 0xbe, 0x4f, 0xac, 0x88, 0xbe, 0x4a, 0xfb, 0xff, 0xff, 
  0x04, 0x00, 0x00, 0x00, 0x40, 0x00, 0x00, 0x00, 0x00, 0x00, 0x00, 0x00, 
  0x40, 0xb3, 0xcc, 0x3e, 0x00, 0x00, 0x00, 0x00, 0xe2, 0x48, 0x75, 0x3f, 
  0xc7, 0x82, 0xf6, 0xbe, 0xf9, 0x1e, 0x91, 0x3e, 0x88, 0xba, 0x44, 0xbc, 
  0x1c, 0x7e, 0xd5, 0xbe, 0x4a, 0x1a, 0x24, 0xbf, 0x00, 0x00, 0x00, 0x00, 
  0x00, 0x00, 0x00, 0x00, 0x1e, 0x5f, 0xb1, 0x3e, 0x00, 0x00, 0x00, 0x00, 
  0x36, 0x9d, 0x63, 0x3f, 0x00, 0x00, 0x00, 0x00, 0x00, 0x00, 0x00, 0x00, 
  0x96, 0xfb, 0xff, 0xff, 0x04, 0x00, 0x00, 0x00, 0x40, 0x00, 0x00, 0x00, 
  0x00, 0x00, 0x00, 0x00, 0x9d, 0x17, 0xc8, 0xbc, 0x00, 0x00, 0x00, 0x00, 
  0x00, 0x00, 0x00, 0x00, 0x93, 0xab, 0xe2, 0x3c, 0xfd, 0xeb, 0x4b, 0x3f, 
  0xa9, 0x16, 0x7e, 0xbc, 0xe5, 0x0b, 0xe8, 0x3e, 0x61, 0xac, 0xf7, 0x3e, 
  0xfd, 0xb8, 0x0c, 0x3e, 0xfc, 0x2e, 0x53, 0xbd, 0x21, 0x53, 0xb5, 0xbc, 
  0x00, 0x00, 0x00, 0x00, 0x96, 0xec, 0x9f, 0xbc, 0xcd, 0xab, 0x42, 0x3f, 
  0x00, 0x00, 0x00, 0x00, 0xe2, 0xfb, 0xff, 0xff, 0x04, 0x00, 0x00, 0x00, 
  0x04, 0x00, 0x00, 0x00, 0xe0, 0xd8, 0x25, 0xbe, 0xf2, 0xfb, 0xff, 0xff, 
  0x04, 0x00, 0x00, 0x00, 0x00, 0x04, 0x00, 0x00, 0x48, 0xf5, 0x84, 0xbd, 
  0x52, 0xdd, 0xa3, 0xbe, 0xfe, 0xe7, 0x01, 0x3e, 0x00, 0xf5, 0xed, 0xbb, 
  0x40, 0xc9, 0x7e, 0xbd, 0x50, 0x53, 0xf5, 0xbc, 0x0c, 0xc0, 0x88, 0x3d, 
  0x6e, 0xae, 0x1f, 0x3e, 0x86, 0x36, 0x4e, 0x3e, 0x32, 0x1d, 0x17, 0x3e, 
  0xf2, 0x4c, 0x85, 0xbe, 0xa4, 0x0d, 0x99, 0xbd, 0x7e, 0x35, 0xca, 0xbe, 
  0xd5, 0xd9, 0xc5, 0xbe, 0x80, 0xa0, 0x3e, 0xbb, 0xa9, 0xa0, 0x91, 0x3e, 
  0xca, 0x5d, 0x55, 0x3e, 0x4b, 0xfb, 0xab, 0xbe, 0x18, 0x35, 0xf5, 0xbd, 
  0x86, 0x2f, 0x4e, 0xbe, 0x6e, 0xb4, 0xc5, 0xbe, 0x83, 0x7f, 0x53, 0x3e, 
  0xb1, 0xd7, 0xa6, 0x3e, 0xbb, 0x2a, 0x7e, 0x3e, 0xc3, 0x63, 0x57, 0x3e, 
  0x44, 0xce, 0x9b, 0xbd, 0xcc, 0x9d, 0xae, 0x3d, 0x27, 0xc6, 0x15, 0x3e, 
  0x25, 0x82, 0xd2, 0x3e, 0xe9, 0x2a, 0x0f, 0x3e, 0x54, 0x7f, 0x8b, 0x3d, 
  0x27, 0xae, 0x84, 0xbe, 0xe7, 0x61, 0xbd, 0x3e, 0xe0, 0x1b, 0x8f, 0xbc, 
  0xee, 0xad, 0x83, 0xbe, 0x4b, 0xd2, 0xd4, 0xbe, 0xbf, 0x97, 0xc5, 0xbe, 
  0x7e, 0xa1, 0x33, 0x3e, 0xee, 0x33, 0x48, 0x3e, 0x63, 0x94, 0xd4, 0xbe, 
  0x28, 0xd3, 0xdc, 0xbd, 0x51, 0x43, 0xad, 0xbe, 0x06, 0x69, 0xb4, 0xbe, 
  0x60, 0x15, 0x53, 0x3d, 0x7e, 0x0e, 0x73, 0x3e, 0x93, 0x30, 0x5e, 0xbe, 
  0x7c, 0x73, 0xc3, 0xbe, 0x9d, 0xc5, 0x8e, 0x3e, 0xe4, 0x80, 0xe8, 0x3d, 
  0x31, 0x48, 0xc0, 0xbe, 0x8f, 0x9c, 0x83, 0x3e, 0x72, 0x29, 0x2f, 0xbe, 
  0x7d, 0x46, 0x52, 0xbe, 0x34, 0x2a, 0x69, 0xbe, 0x1f, 0xba, 0xbe, 0x3e, 
  0xd4, 0xfc, 0x43, 0xbe, 0x30, 0x05, 0x83, 0xbc, 0xc3, 0xbd, 0xc3, 0x3e, 
  0x34, 0x25, 0xab, 0x3d, 0x8e, 0xa7, 0x12, 0xbe, 0x9c, 0x2b, 0xe3, 0x3d, 
  0xf2, 0x8d, 0x7f, 0x3e, 0x69, 0xea, 0x55, 0xbe, 0x00, 0x1a, 0x2e, 0xbd, 
  0x91, 0xda, 0xbd, 0x3e, 0x9e, 0xd5, 0xd8, 0x3e, 0x44, 0x22, 0xf6, 0x3d, 
  0xc0, 0x77, 0xcd, 0x3d, 0x21, 0xbd, 0x9d, 0xbd, 0xae, 0x23, 0xa3, 0xbc, 
  0x9b, 0xca, 0xaa, 0x3e, 0xb2, 0x8e, 0x83, 0x3e, 0xba, 0x9c, 0xe9, 0x3a, 
  0x96, 0xd4, 0x8d, 0xbe, 0xcc, 0x95, 0xac, 0xbd, 0x99, 0x66, 0xb4, 0x3e, 
  0x31, 0x3c, 0x92, 0x3e, 0x35, 0x63, 0x0c, 0x3f, 0x0e, 0xfc, 0x4f, 0xbe, 
  0x64, 0x8a, 0x96, 0x3d, 0x2d, 0xd7, 0xd3, 0x3e, 0x09, 0x02, 0x1e, 0xbd, 
  0x6e, 0x6f, 0x6d, 0x3e, 0x59, 0x29, 0x38, 0x3f, 0xfb, 0x49, 0x3d, 0xbf, 
  0x8a, 0x58, 0x47, 0x3e, 0x21, 0xcb, 0x04, 0xbc, 0x38, 0x3e, 0xb7, 0xbe, 
  0x73, 0x09, 0xfd, 0xbe, 0xde, 0xe8, 0x6c, 0x3e, 0x8f, 0x59, 0xa4, 0x3e, 
  0x73, 0xe5, 0x4a, 0x3e, 0x98, 0x19, 0x90, 0xbd, 0xf3, 0x7a, 0xb2, 0x3f, 
  0x80, 0xcd, 0x2f, 0x3d, 0xf0, 0xdf, 0x4e, 0xbd, 0xf0, 0xa0, 0xae, 0xbd, 
  0x35, 0x9c, 0xce, 0xbe, 0xf0, 0x39, 0xbe, 0x3c, 0x0a, 0xf9, 0xa2, 0xbe, 
  0x8c, 0xe2, 0x5e, 0x3e, 0x3b, 0x72, 0x32, 0x3e, 0x79, 0xff, 0xc8, 0x3d, 
  0x04, 0x13, 0x44, 0x3e, 0xdb, 0xa9, 0x80, 0x3e, 0x98, 0x53, 0x11, 0xbd, 
  0x20, 0x6e, 0xb9, 0xbc, 0x47, 0x00, 0x2e, 0xbb, 0xff, 0x07, 0xb5, 0x3e, 
  0xac, 0x14, 0x2a, 0xbe, 0x50, 0xa2, 0xd8, 0x3c, 0xe8, 0xc4, 0x17, 0xbe, 
  0xd2, 0x2a, 0x60, 0x3e, 0x8e, 0x62, 0x85, 0x3e, 0x2a, 0x6b, 0x16, 0x3e, 
  0xc4, 0x12, 0x85, 0x3e, 0x03, 0x2b, 0x05, 0xbf, 0x68, 0x89, 0x32, 0xbe, 
  0xe9, 0x1f, 0x97, 0xbe, 0xdd, 0x18, 0x9b, 0xbd, 0x78, 0xc7, 0xc9, 0xbe, 
  0x0e, 0x21, 0x9b, 0xbe, 0x0e, 0x3a, 0x13, 0x3e, 0x43, 0x17, 0x3a, 0xbe, 
  0x67, 0xa1, 0xad, 0x3e, 0xbc, 0x3c, 0x76, 0x3f, 0x25, 0x50, 0xa5, 0x3e, 
  0xce, 0x25, 0x10, 0x3e, 0xdf, 0x0d, 0x99, 0xbe, 0x35, 0x6c, 0xc4, 0xbe, 
  0xa3, 0x5e, 0x81, 0x3e, 0x25, 0xd3, 0x95, 0x3e, 0xbb, 0xa7, 0xc5, 0x3e, 
  0x06, 0x41, 0x4e, 0xbf, 0x0a, 0xdc, 0x73, 0x3e, 0x90, 0x29, 0x0e, 0xbe, 
  0x79, 0x89, 0xa6, 0x3e, 0xab, 0x68, 0x99, 0x3e, 0xac, 0x93, 0xc0, 0x3d, 
  0xdc, 0x52, 0xb8, 0x3d, 0x38, 0x7a, 0x10, 0x3d, 0xdc, 0x68, 0x62, 0x3f, 
  0x1a, 0x47, 0x1b, 0x3e, 0xfc, 0xb4, 0xe6, 0x3d, 0xc9, 0x82, 0x62, 0xbe, 
  0xe2, 0x63, 0x9e, 0x3e, 0x62, 0x8c, 0x97, 0xbe, 0xec, 0x57, 0x22, 0xbe, 
  0x8d, 0x87, 0x93, 0x3e, 0x68, 0x2a, 0x17, 0x3e, 0xa7, 0xe2, 0xc1, 0xbe, 
  0x32, 0x11, 0x0a, 0x3e, 0x26, 0xec, 0xbb, 0xbd, 0xe6, 0x04, 0x3a, 0x3e, 
  0xa7, 0xa0, 0x43, 0xbe, 0x45, 0x28, 0xba, 0xbe, 0x4a, 0xd7, 0x02, 0xbe, 
  0x51, 0xff, 0x8b, 0x3e, 0x1b, 0x3a, 0xab, 0x3e, 0x84, 0x81, 0x9f, 0xbe, 
  0xe6, 0x80, 0x8b, 0xbe, 0x2f, 0x17, 0x88, 0xbe, 0x50, 0x2c, 0xc7, 0x3c, 
  0x0b, 0x13, 0xef, 0x3c, 0xdd, 0x13, 0x6f, 0xbe, 0x07, 0x39, 0x28, 0xbe, 
  0xb6, 0xa9, 0x19, 0x3e, 0xca, 0x95, 0x55, 0x3e, 0x49, 0xe9, 0x0c, 0x3d, 
  0x84, 0x44, 0x62, 0xbe, 0x4c, 0xbd, 0xdc, 0x3d, 0x68, 0x1a, 0xa2, 0x3e, 
  0x40, 0xe3, 0x7c, 0xbc, 0xa0, 0x75, 0x8d, 0xbd, 0x99, 0xe2, 0xdc, 0x3e, 
  0x1b, 0x46, 0xa6, 0x3e, 0x06, 0xa1, 0xa0, 0xbe, 0x22, 0xf8, 0xc0, 0xbd, 
  0xb2, 0xc6, 0x36, 0x3e, 0xaa, 0x5e, 0xff, 0x3c, 0x06, 0x23, 0xc8, 0xbd, 
  0x40, 0x7a, 0xe8, 0x3d, 0xbe, 0x35, 0x5c, 0x3c, 0xa6, 0xd8, 0xc6, 0x3e, 
  0x66, 0x3d, 0xa4, 0x3c, 0x57, 0x5b, 0xd4, 0x3e, 0x51, 0xfe, 0x40, 0xbe, 
  0xc3, 0xe5, 0x89, 0xbe, 0x2e, 0x0c, 0x63, 0x3e, 0x54, 0xc8, 0x96, 0xbe, 
  0xa4, 0xaa, 0xa4, 0x3d, 0x5c, 0x6a, 0xae, 0x3d, 0xd0, 0x08, 0xfa, 0xbc, 
  0x48, 0xf8, 0xed, 0xbd, 0x9f, 0x2b, 0x83, 0x3e, 0xf4, 0xfa, 0xbd, 0x3d, 
  0x88, 0xd3, 0x16, 0xbd, 0x8f, 0x5b, 0xa6, 0x3e, 0x02, 0xec, 0x38, 0x3e, 
  0xff, 0x8e, 0xd6, 0xbe, 0x40, 0xcc, 0x99, 0xbe, 0xf0, 0x20, 0xba, 0xbc, 
  0xbd, 0xd7, 0xbb, 0xbe, 0x49, 0xe4, 0xc1, 0xbe, 0xf6, 0xef, 0xc6, 0xbe, 
  0x20, 0xec, 0x6e, 0xbe, 0x08, 0x9f, 0x7e, 0xbd, 0x28, 0xc7, 0x96, 0xbe, 
  0x93, 0xa1, 0xc1, 0x3e, 0x6f, 0x69, 0xc0, 0xbd, 0xca, 0x30, 0x52, 0x3e, 
  0x8a, 0xe1, 0x83, 0xbc, 0x53, 0xd3, 0xa4, 0x3d, 0x4e, 0x1d, 0x64, 0x3e, 
  0xd4, 0xd0, 0x77, 0x3d, 0x35, 0xdf, 0xe6, 0xbd, 0x8a, 0xd5, 0x92, 0xbd, 
  0x14, 0xec, 0x95, 0xbe, 0xee, 0xe6, 0x53, 0x3e, 0x27, 0x40, 0xb4, 0x3e, 
  0x84, 0xc4, 0xb8, 0xbd, 0x60, 0x92, 0x24, 0xbe, 0x1c, 0x89, 0xad, 0x3d, 
  0xfa, 0x74, 0x60, 0x3e, 0xf1, 0xd8, 0x9e, 0x3e, 0x93, 0xf8, 0x71, 0xbd, 
  0xb8, 0x84, 0xb9, 0xbd, 0x83, 0xc1, 0x2b, 0x3f, 0x50, 0x25, 0x15, 0xbf, 
  0x9d, 0xe6, 0x9f, 0x3d, 0x25, 0x93, 0x30, 0x3e, 0x83, 0xbf, 0x20, 0xbf, 
  0x23, 0xaa, 0x70, 0xbf, 0xd7, 0x60, 0xb1, 0x3e, 0xae, 0xf0, 0x25, 0xbe, 
  0xec, 0xd8, 0xd3, 0x3e, 0xe8, 0x26, 0x7a, 0x3d, 0x41, 0x4b, 0x43, 0x3f, 
  0xf0, 0xbb, 0x67, 0x3d, 0x13, 0x57, 0xa0, 0x3e, 0xc2, 0xda, 0x64, 0x3e, 
  0x80, 0x73, 0x4e, 0xbe, 0xb2, 0x80, 0x42, 0x3e, 0x9e, 0x0c, 0x6a, 0xbe, 
  0xde, 0xe1, 0x83, 0xbe, 0xc0, 0x28, 0x17, 0xbe, 0x40, 0xa2, 0x26, 0x3d, 
  0x47, 0xa7, 0xd4, 0x3e, 0x9a, 0x7f, 0x6b, 0xbe, 0x75, 0x6e, 0xd6, 0x3e, 
  0x20, 0xa8, 0xd6, 0xbd, 0x00, 0xf2, 0x1b, 0xbb, 0x31, 0x2f, 0xc9, 0x3e, 
  0x1c, 0xf0, 0xb1, 0x3d, 0xd8, 0x70, 0xcc, 0xbd, 0x10, 0xb1, 0xae, 0xbd, 
  0x00, 0x00, 0x06, 0x00, 0x08, 0x00, 0x04, 0x00, 0x06, 0x00, 0x00, 0x00, 
  0x04, 0x00, 0x00, 0x00, 0x40, 0x00, 0x00, 0x00, 0xe8, 0x9e, 0x8e, 0x3d, 
  0xf5, 0x25, 0x75, 0x3e, 0x06, 0x69, 0xfd, 0xbe, 0xca, 0xe5, 0xcc, 0x3e, 
  0x0d, 0x77, 0x50, 0xbd, 0xb6, 0x60, 0x86, 0xbf, 0x44, 0xca, 0x84, 0x3d, 
  0xf3, 0xfb, 0x92, 0x3f, 0x59, 0x76, 0xa4, 0xbf, 0xe1, 0x82, 0xb8, 0xbd, 
  0xe2, 0x95, 0x65, 0x3e, 0x81, 0xe0, 0x3a, 0x3e, 0xe6, 0xfd, 0x13, 0x3f, 
  0x56, 0x78, 0x53, 0x3e, 0x3d, 0x51, 0xad, 0x3f, 0x9b, 0xb9, 0x91, 0xbe, 
  0x28, 0xfb, 0xff, 0xff, 0x2c, 0xfb, 0xff, 0xff, 0x0f, 0x00, 0x00, 0x00, 
  0x4d, 0x4c, 0x49, 0x52, 0x20, 0x43, 0x6f, 0x6e, 0x76, 0x65, 0x72, 0x74, 
  0x65, 0x64, 0x2e, 0x00, 0x01, 0x00, 0x00, 0x00, 0x14, 0x00, 0x00, 0x00, 
  0x00, 0x00, 0x0e, 0x00, 0x18, 0x00, 0x14, 0x00, 0x10, 0x00, 0x0c, 0x00, 
  0x08, 0x00, 0x04, 0x00, 0x0e, 0x00, 0x00, 0x00, 0x14, 0x00, 0x00, 0x00, 
  0x1c, 0x00, 0x00, 0x00, 0xd8, 0x00, 0x00, 0x00, 0xdc, 0x00, 0x00, 0x00, 
  0xe0, 0x00, 0x00, 0x00, 0x04, 0x00, 0x00, 0x00, 0x6d, 0x61, 0x69, 0x6e, 
  0x00, 0x00, 0x00, 0x00, 0x03, 0x00, 0x00, 0x00, 0x80, 0x00, 0x00, 0x00, 
  0x38, 0x00, 0x00, 0x00, 0x04, 0x00, 0x00, 0x00, 0x9a, 0xff, 0xff, 0xff, 
  0x10, 0x00, 0x00, 0x00, 0x00, 0x00, 0x00, 0x08, 0x0c, 0x00, 0x00, 0x00, 
  0x10, 0x00, 0x00, 0x00, 0xa4, 0xfb, 0xff, 0xff, 0x01, 0x00, 0x00, 0x00, 
  0x09, 0x00, 0x00, 0x00, 0x03, 0x00, 0x00, 0x00, 0x08, 0x00, 0x00, 0x00, 
  0x01, 0x00, 0x00, 0x00, 0x03, 0x00, 0x00, 0x00, 0xca, 0xff, 0xff, 0xff, 
  0x10, 0x00, 0x00, 0x00, 0x00, 0x00, 0x00, 0x08, 0x10, 0x00, 0x00, 0x00, 
  0x14, 0x00, 0x00, 0x00, 0xba, 0xff, 0xff, 0xff, 0x00, 0x00, 0x00, 0x01, 
  0x01, 0x00, 0x00, 0x00, 0x08, 0x00, 0x00, 0x00, 0x03, 0x00, 0x00, 0x00, 
  0x07, 0x00, 0x00, 0x00, 0x02, 0x00, 0x00, 0x00, 0x04, 0x00, 0x00, 0x00, 
  0x00, 0x00, 0x0e, 0x00, 0x16, 0x00, 0x00, 0x00, 0x10, 0x00, 0x0c, 0x00, 
  0x0b, 0x00, 0x04, 0x00, 0x0e, 0x00, 0x00, 0x00, 0x18, 0x00, 0x00, 0x00, 
  0x00, 0x00, 0x00, 0x08, 0x18, 0x00, 0x00, 0x00, 0x1c, 0x00, 0x00, 0x00, 
  0x00, 0x00, 0x06, 0x00, 0x08, 0x00, 0x07, 0x00, 0x06, 0x00, 0x00, 0x00, 
  0x00, 0x00, 0x00, 0x01, 0x01, 0x00, 0x00, 0x00, 0x07, 0x00, 0x00, 0x00, 
  0x03, 0x00, 0x00, 0x00, 0x00, 0x00, 0x00, 0x00, 0x06, 0x00, 0x00, 0x00, 
  0x05, 0x00, 0x00, 0x00, 0x01, 0x00, 0x00, 0x00, 0x09, 0x00, 0x00, 0x00, 
  0x01, 0x00, 0x00, 0x00, 0x00, 0x00, 0x00, 0x00, 0x0a, 0x00, 0x00, 0x00, 
  0x84, 0x03, 0x00, 0x00, 0x2c, 0x03, 0x00, 0x00, 0xd4, 0x02, 0x00, 0x00, 
  0x98, 0x02, 0x00, 0x00, 0x5c, 0x02, 0x00, 0x00, 0xfc, 0x01, 0x00, 0x00, 
  0xa8, 0x01, 0x00, 0x00, 0x04, 0x01, 0x00, 0x00, 0x60, 0x00, 0x00, 0x00, 
  0x04, 0x00, 0x00, 0x00, 0xba, 0xfc, 0xff, 0xff, 0x00, 0x00, 0x00, 0x01, 
  0x14, 0x00, 0x00, 0x00, 0x1c, 0x00, 0x00, 0x00, 0x1c, 0x00, 0x00, 0x00, 
  0x0a, 0x00, 0x00, 0x00, 0x34, 0x00, 0x00, 0x00, 0x02, 0x00, 0x00, 0x00, 
  0xff, 0xff, 0xff, 0xff, 0x01, 0x00, 0x00, 0x00, 0xa4, 0xfc, 0xff, 0xff, 
  0x1b, 0x00, 0x00, 0x00, 0x53, 0x74, 0x61, 0x74, 0x65, 0x66, 0x75, 0x6c, 
  0x50, 0x61, 0x72, 0x74, 0x69, 0x74, 0x69, 0x6f, 0x6e, 0x65, 0x64, 0x43, 
  0x61, 0x6c, 0x6c, 0x5f, 0x31, 0x3a, 0x30, 0x00, 0x02, 0x00, 0x00, 0x00, 
  0x01, 0x00, 0x00, 0x00, 0x01, 0x00, 0x00, 0x00, 0x12, 0xfd, 0xff, 0xff, 
  0x00, 0x00, 0x00, 0x01, 0x14, 0x00, 0x00, 0x00, 0x1c, 0x00, 0x00, 0x00, 
  0x1c, 0x00, 0x00, 0x00, 0x09, 0x00, 0x00, 0x00, 0x7c, 0x00, 0x00, 0x00, 
  0x02, 0x00, 0x00, 0x00, 0xff, 0xff, 0xff, 0xff, 0x10, 0x00, 0x00, 0x00, 
  0xfc, 0xfc, 0xff, 0xff, 0x61, 0x00, 0x00, 0x00, 0x73, 0x65, 0x71, 0x75, 
  0x65, 0x6e, 0x74, 0x69, 0x61, 0x6c, 0x5f, 0x34, 0x5f, 0x31, 0x2f, 0x64, 
  0x65, 0x6e, 0x73, 0x65, 0x5f, 0x31, 0x32, 0x5f, 0x31, 0x2f, 0x4d, 0x61, 
  0x74, 0x4d, 0x75, 0x6c, 0x3b, 0x73, 0x65, 0x71, 0x75, 0x65, 0x6e, 0x74, 
  0x69, 0x61, 0x6c, 0x5f, 0x34, 0x5f, 0x31, 0x2f, 0x64, 0x65, 0x6e, 0x73, 
  0x65, 0x5f, 0x31, 0x32, 0x5f, 0x31, 0x2f, 0x52, 0x65, 0x6c, 0x75, 0x3b, 
  0x73, 0x65, 0x71, 0x75, 0x65, 0x6e, 0x74, 0x69, 0x61, 0x6c, 0x5f, 0x34, 
  0x5f, 0x31, 0x2f, 0x64, 0x65, 0x6e, 0x73, 0x65, 0x5f, 0x31, 0x32, 0x5f, 
  0x31, 0x2f, 0x42, 0x69, 0x61, 0x73, 0x41, 0x64, 0x64, 0x00, 0x00, 0x00, 
  0x02, 0x00, 0x00, 0x00, 0x01, 0x00, 0x00, 0x00, 0x10, 0x00, 0x00, 0x00, 
  0xb2, 0xfd, 0xff, 0xff, 0x00, 0x00, 0x00, 0x01, 0x14, 0x00, 0x00, 0x00, 
  0x1c, 0x00, 0x00, 0x00, 0x1c, 0x00, 0x00, 0x00, 0x08, 0x00, 0x00, 0x00, 
  0x7c, 0x00, 0x00, 0x00, 0x02, 0x00, 0x00, 0x00, 0xff, 0xff, 0xff, 0xff, 
  0x10, 0x00, 0x00, 0x00, 0x9c, 0xfd, 0xff, 0xff, 0x61, 0x00, 0x00, 0x00, 
  0x73, 0x65, 0x71, 0x75, 0x65, 0x6e, 0x74, 0x69, 0x61, 0x6c, 0x5f, 0x34, 
  0x5f, 0x31, 0x2f, 0x64, 0x65, 0x6e, 0x73, 0x65, 0x5f, 0x31, 0x31, 0x5f, 
  0x31, 0x2f, 0x4d, 0x61, 0x74, 0x4d, 0x75, 0x6c, 0x3b, 0x73, 0x65, 0x71, 
  0x75, 0x65, 0x6e, 0x74, 0x69, 0x61, 0x6c, 0x5f, 0x34, 0x5f, 0x31, 0x2f, 
  0x64, 0x65, 0x6e, 0x73, 0x65, 0x5f, 0x31, 0x31, 0x5f, 0x31, 0x2f, 0x52, 
  0x65, 0x6c, 0x75, 0x3b, 0x73, 0x65, 0x71, 0x75, 0x65, 0x6e, 0x74, 0x69, 
  0x61, 0x6c, 0x5f, 0x34, 0x5f, 0x31, 0x2f, 0x64, 0x65, 0x6e, 0x73, 0x65, 
  0x5f, 0x31, 0x31, 0x5f, 0x31, 0x2f, 0x42, 0x69, 0x61, 0x73, 0x41, 0x64, 
  0x64, 0x00, 0x00, 0x00, 0x02, 0x00, 0x00, 0x00, 0x01, 0x00, 0x00, 0x00, 
  0x10, 0x00, 0x00, 0x00, 0xa6, 0xfe, 0xff, 0xff, 0x00, 0x00, 0x00, 0x01, 
  0x10, 0x00, 0x00, 0x00, 0x10, 0x00, 0x00, 0x00, 0x07, 0x00, 0x00, 0x00, 
  0x30, 0x00, 0x00, 0x00, 0x2c, 0xfe, 0xff, 0xff, 0x20, 0x00, 0x00, 0x00, 
  0x73, 0x65, 0x71, 0x75, 0x65, 0x6e, 0x74, 0x69, 0x61, 0x6c, 0x5f, 0x34, 
  0x5f, 0x31, 0x2f, 0x64, 0x65, 0x6e, 0x73, 0x65, 0x5f, 0x31, 0x31, 0x5f, 
  0x31, 0x2f, 0x4d, 0x61, 0x74, 0x4d, 0x75, 0x6c, 0x00, 0x00, 0x00, 0x00, 
  0x02, 0x00, 0x00, 0x00, 0x10, 0x00, 0x00, 0x00, 0x01, 0x00, 0x00, 0x00, 
  0xf6, 0xfe, 0xff, 0xff, 0x00, 0x00, 0x00, 0x01, 0x10, 0x00, 0x00, 0x00, 
  0x10, 0x00, 0x00, 0x00, 0x06, 0x00, 0x00, 0x00, 0x40, 0x00, 0x00, 0x00, 
  0x7c, 0xfe, 0xff, 0xff, 0x30, 0x00, 0x00, 0x00, 0x73, 0x65, 0x71, 0x75, 
  0x65, 0x6e, 0x74, 0x69, 0x61, 0x6c, 0x5f, 0x34, 0x5f, 0x31, 0x2f, 0x64, 
  0x65, 0x6e, 0x73, 0x65, 0x5f, 0x31, 0x31, 0x5f, 0x31, 0x2f, 0x42, 0x69, 
  0x61, 0x73, 0x41, 0x64, 0x64, 0x2f, 0x52, 0x65, 0x61, 0x64, 0x56, 0x61, 
  0x72, 0x69, 0x61, 0x62, 0x6c, 0x65, 0x4f, 0x70, 0x00, 0x00, 0x00, 0x00, 
  0x01, 0x00, 0x00, 0x00, 0x10, 0x00, 0x00, 0x00, 0x52, 0xff, 0xff, 0xff, 
  0x00, 0x00, 0x00, 0x01, 0x10, 0x00, 0x00, 0x00, 0x10, 0x00, 0x00, 0x00, 
  0x05, 0x00, 0x00, 0x00, 0x1c, 0x00, 0x00, 0x00, 0xd8, 0xfe, 0xff, 0xff, 
  0x0f, 0x00, 0x00, 0x00, 0x61, 0x72, 0x69, 0x74, 0x68, 0x2e, 0x63, 0x6f, 
  0x6e, 0x73, 0x74, 0x61, 0x6e, 0x74, 0x33, 0x00, 0x01, 0x00, 0x00, 0x00, 
  0x10, 0x00, 0x00, 0x00, 0x8a, 0xff, 0xff, 0xff, 0x00, 0x00, 0x00, 0x01, 
  0x10, 0x00, 0x00, 0x00, 0x10, 0x00, 0x00, 0x00, 0x04, 0x00, 0x00, 0x00, 
  0x1c, 0x00, 0x00, 0x00, 0x10, 0xff, 0xff, 0xff, 0x0f, 0x00, 0x00, 0x00, 
  0x61, 0x72, 0x69, 0x74, 0x68, 0x2e, 0x63, 0x6f, 0x6e, 0x73, 0x74, 0x61, 
  0x6e, 0x74, 0x32, 0x00, 0x01, 0x00, 0x00, 0x00, 0x01, 0x00, 0x00, 0x00, 
  0xc2, 0xff, 0xff, 0xff, 0x00, 0x00, 0x00, 0x01, 0x10, 0x00, 0x00, 0x00, 
  0x10, 0x00, 0x00, 0x00, 0x03, 0x00, 0x00, 0x00, 0x1c, 0x00, 0x00, 0x00, 
  0x48, 0xff, 0xff, 0xff, 0x0f, 0x00, 0x00, 0x00, 0x61, 0x72, 0x69, 0x74, 
  0x68, 0x2e, 0x63, 0x6f, 0x6e, 0x73, 0x74, 0x61, 0x6e, 0x74, 0x31, 0x00, 
  0x02, 0x00, 0x00, 0x00, 0x10, 0x00, 0x00, 0x00, 0x10, 0x00, 0x00, 0x00, 
  0x00, 0x00, 0x16, 0x00, 0x18, 0x00, 0x14, 0x00, 0x00, 0x00, 0x10, 0x00, 
  0x0c, 0x00, 0x08, 0x00, 0x00, 0x00, 0x00, 0x00, 0x00, 0x00, 0x07, 0x00, 
  0x16, 0x00, 0x00, 0x00, 0x00, 0x00, 0x00, 0x01, 0x10, 0x00, 0x00, 0x00, 
  0x10, 0x00, 0x00, 0x00, 0x02, 0x00, 0x00, 0x00, 0x1c, 0x00, 0x00, 0x00, 
  0x9c, 0xff, 0xff, 0xff, 0x0e, 0x00, 0x00, 0x00, 0x61, 0x72, 0x69, 0x74, 
  0x68, 0x2e, 0x63, 0x6f, 0x6e, 0x73, 0x74, 0x61, 0x6e, 0x74, 0x00, 0x00, 
  0x02, 0x00, 0x00, 0x00, 0x01, 0x00, 0x00, 0x00, 0x10, 0x00, 0x00, 0x00, 
  0x00, 0x00, 0x16, 0x00, 0x1c, 0x00, 0x18, 0x00, 0x00, 0x00, 0x14, 0x00, 
  0x10, 0x00, 0x0c, 0x00, 0x00, 0x00, 0x00, 0x00, 0x08, 0x00, 0x07, 0x00, 
  0x16, 0x00, 0x00, 0x00, 0x00, 0x00, 0x00, 0x01, 0x14, 0x00, 0x00, 0x00, 
  0x20, 0x00, 0x00, 0x00, 0x20, 0x00, 0x00, 0x00, 0x01, 0x00, 0x00, 0x00, 
  0x40, 0x00, 0x00, 0x00, 0x02, 0x00, 0x00, 0x00, 0xff, 0xff, 0xff, 0xff, 
  0x01, 0x00, 0x00, 0x00, 0x04, 0x00, 0x04, 0x00, 0x04, 0x00, 0x00, 0x00, 
  0x21, 0x00, 0x00, 0x00, 0x73, 0x65, 0x72, 0x76, 0x69, 0x6e, 0x67, 0x5f, 
  0x64, 0x65, 0x66, 0x61, 0x75, 0x6c, 0x74, 0x5f, 0x6b, 0x65, 0x72, 0x61, 
  0x73, 0x5f, 0x74, 0x65, 0x6e, 0x73, 0x6f, 0x72, 0x5f, 0x32, 0x34, 0x3a, 
  0x30, 0x00, 0x00, 0x00, 0x02, 0x00, 0x00, 0x00, 0x01, 0x00, 0x00, 0x00, 
  0x01, 0x00, 0x00, 0x00, 0x01, 0x00, 0x00, 0x00, 0x10, 0x00, 0x00, 0x00, 
  0x0c, 0x00, 0x0c, 0x00, 0x0b, 0x00, 0x00, 0x00, 0x00, 0x00, 0x04, 0x00, 
  0x0c, 0x00, 0x00, 0x00, 0x09, 0x00, 0x00, 0x00, 0x00, 0x00, 0x00, 0x09, 
};
const unsigned int model_float_tflite_len = 3180;
