const unsigned char model_int8_vela_tflite[] = {
  0x20, 0x00, 0x00, 0x00, 0x54, 0x46, 0x4c, 0x33, 0x00, 0x00, 0x00, 0x00, 
  0x00, 0x00, 0x12, 0x00, 0x1c, 0x00, 0x18, 0x00, 0x14, 0x00, 0x10, 0x00, 
  0x0c, 0x00, 0x08, 0x00, 0x00, 0x00, 0x04, 0x00, 0x12, 0x00, 0x00, 0x00, 
  0x18, 0x00, 0x00, 0x00, 0xe8, 0x00, 0x00, 0x00, 0x18, 0x0b, 0x00, 0x00, 
  0x68, 0x08, 0x00, 0x00, 0x2c, 0x0b, 0x00, 0x00, 0x03, 0x00, 0x00, 0x00, 
  0x05, 0x00, 0x00, 0x00, 0xac, 0x00, 0x00, 0x00, 0x7c, 0x00, 0x00, 0x00, 
  0x54, 0x00, 0x00, 0x00, 0x30, 0x00, 0x00, 0x00, 0x04, 0x00, 0x00, 0x00, 
  0x70, 0xff, 0xff, 0xff, 0x07, 0x00, 0x00, 0x00, 0x04, 0x00, 0x00, 0x00, 
  0x17, 0x00, 0x00, 0x00, 0x4f, 0x66, 0x66, 0x6c, 0x69, 0x6e, 0x65, 0x4d, 
  0x65, 0x6d, 0x6f, 0x72, 0x79, 0x41, 0x6c, 0x6c, 0x6f, 0x63, 0x61, 0x74, 
  0x69, 0x6f, 0x6e, 0x00, 0x98, 0xff, 0xff, 0xff, 0x06, 0x00, 0x00, 0x00, 
  0x04, 0x00, 0x00, 0x00, 0x0c, 0x00, 0x00, 0x00, 0x76, 0x65, 0x6c, 0x61, 
  0x5f, 0x76, 0x65, 0x72, 0x73, 0x69, 0x6f, 0x6e, 0x00, 0x00, 0x00, 0x00, 
  0xb8, 0xff, 0xff, 0xff, 0x05, 0x00, 0x00, 0x00, 0x04, 0x00, 0x00, 0x00, 
  0x13, 0x00, 0x00, 0x00, 0x43, 0x4f, 0x4e, 0x56, 0x45, 0x52, 0x53, 0x49, 
  0x4f, 0x4e, 0x5f, 0x4d, 0x45, 0x54, 0x41, 0x44, 0x41, 0x54, 0x41, 0x00, 
  0xdc, 0xff, 0xff, 0xff, 0x04, 0x00, 0x00, 0x00, 0x04, 0x00, 0x00, 0x00, 
  0x13, 0x00, 0x00, 0x00, 0x6d, 0x69, 0x6e, 0x5f, 0x72, 0x75, 0x6e, 0x74, 
  0x69, 0x6d, 0x65, 0x5f, 0x76, 0x65, 0x72, 0x73, 0x69, 0x6f, 0x6e, 0x00, 
  0x08, 0x00, 0x0c, 0x00, 0x08, 0x00, 0x04, 0x00, 0x08, 0x00, 0x00, 0x00, 
  0x03, 0x00, 0x00, 0x00, 0x04, 0x00, 0x00, 0x00, 0x13, 0x00, 0x00, 0x00, 
  0x6d, 0x69, 0x6e, 0x5f, 0x72, 0x75, 0x6e, 0x74, 0x69, 0x6d, 0x65, 0x5f, 
  0x76, 0x65, 0x72, 0x73, 0x69, 0x6f, 0x6e, 0x00, 0x08, 0x00, 0x00, 0x00, 
  0x80, 0x07, 0x00, 0x00, 0x7c, 0x05, 0x00, 0x00, 0x18, 0x01, 0x00, 0x00, 
  0xf4, 0x00, 0x00, 0x00, 0xd0, 0x00, 0x00, 0x00, 0x5c, 0x00, 0x00, 0x00, 
  0x38, 0x00, 0x00, 0x00, 0x04, 0x00, 0x00, 0x00, 0xa6, 0xfa, 0xff, 0xff, 
  0x04, 0x00, 0x00, 0x00, 0x24, 0x00, 0x00, 0x00, 0x00, 0x00, 0x00, 0x00, 
  0x01, 0x00, 0x00, 0x00, 0x06, 0x00, 0x00, 0x00, 0x10, 0x00, 0x00, 0x00, 
  0xff, 0xff, 0xff, 0xff, 0xff, 0xff, 0xff, 0xff, 0x00, 0x00, 0x00, 0x00, 
  0x00, 0x00, 0x00, 0x00, 0x00, 0x00, 0x00, 0x00, 0xd6, 0xfa, 0xff, 0xff, 
  0x04, 0x00, 0x00, 0x00, 0x05, 0x00, 0x00, 0x00, 0x34, 0x2e, 0x33, 0x2e, 
  0x30, 0x00, 0x00, 0x00, 0x00, 0x00, 0x00, 0x00, 0x00, 0x00, 0x00, 0x00, 
  0x00, 0x00, 0x00, 0x00, 0xf6, 0xfa, 0xff, 0xff, 0x04, 0x00, 0x00, 0x00, 
  0x60, 0x00, 0x00, 0x00, 0x0c, 0x00, 0x00, 0x00, 0x08, 0x00, 0x0e, 0x00, 
  0x08, 0x00, 0x04, 0x00, 0x08, 0x00, 0x00, 0x00, 0x10, 0x00, 0x00, 0x00, 
  0x28, 0x00, 0x00, 0x00, 0x00, 0x00, 0x06, 0x00, 0x08, 0x00, 0x04, 0x00, 
  0x06, 0x00, 0x00, 0x00, 0x04, 0x00, 0x00, 0x00, 0x01, 0x00, 0x00, 0x00, 
  0xeb, 0x03, 0x00, 0x00, 0x0c, 0x00, 0x18, 0x00, 0x14, 0x00, 0x10, 0x00, 
  0x0c, 0x00, 0x04, 0x00, 0x0c, 0x00, 0x00, 0x00, 0x7f, 0x77, 0x1c, 0xdf, 
  0x73, 0x60, 0x95, 0x39, 0x02, 0x00, 0x00, 0x00, 0x02, 0x00, 0x00, 0x00, 
  0x04, 0x00, 0x00, 0x00, 0x06, 0x00, 0x00, 0x00, 0x32, 0x2e, 0x31, 0x39, 
  0x2e, 0x30, 0x00, 0x00, 0x00, 0x00, 0x00, 0x00, 0x66, 0xfb, 0xff, 0xff, 
  0x04, 0x00, 0x00, 0x00, 0x10, 0x00, 0x00, 0x00, 0x00, 0x00, 0x00, 0x00, 
  0x00, 0x00, 0x00, 0x00, 0x00, 0x00, 0x00, 0x00, 0x00, 0x00, 0x00, 0x00, 
  0x00, 0x00, 0x00, 0x00, 0x86, 0xfb, 0xff, 0xff, 0x04, 0x00, 0x00, 0x00, 
  0x10, 0x00, 0x00, 0x00, 0x31, 0x2e, 0x31, 0x34, 0x2e, 0x30, 0x00, 0x00, 
  0x00, 0x00, 0x00, 0x00, 0x00, 0x00, 0x00, 0x00, 0x00, 0x00, 0x00, 0x00, 
  0xa6, 0xfb, 0xff, 0xff, 0x04, 0x00, 0x00, 0x00, 0x40, 0x04, 0x00, 0x00, 
  0x00, 0x00, 0x00, 0x00, 0x00, 0x00, 0x00, 0x00, 0x00, 0x00, 0x00, 0x00, 
  0x00, 0x00, 0x00, 0x00, 0x00, 0x00, 0x00, 0x00, 0x00, 0x00, 0x00, 0x00, 
  0x00, 0x00, 0x00, 0x00, 0x00, 0x00, 0x00, 0x00, 0x00, 0x00, 0x00, 0x00, 
  0x00, 0x00, 0x00, 0x00, 0x00, 0x00, 0x00, 0x00, 0x00, 0x00, 0x00, 0x00, 
  0x00, 0x00, 0x00, 0x00, 0x00, 0x00, 0x00, 0x00, 0x00, 0x00, 0x00, 0x00, 
  0x00, 0x00, 0x00, 0x00, 0x00, 0x00, 0x00, 0x00, 0x00, 0x00, 0x00, 0x00, 
  0x00, 0x00, 0x00, 0x00, 0x00, 0x00, 0x00, 0x00, 0x00, 0x00, 0x00, 0x00, 
  0x00, 0x00, 0x00, 0x00, 0x00, 0x00, 0x00, 0x00, 0x00, 0x00, 0x00, 0x00, 
  0x00, 0x00, 0x00, 0x00, 0x00, 0x00, 0x00, 0x00, 0x00, 0x00, 0x00, 0x00, 
  0x00, 0x00, 0x00, 0x00, 0x00, 0x00, 0x00, 0x00, 0x00, 0x00, 0x00, 0x00, 
  0x00, 0x00, 0x00, 0x00, 0x00, 0x00, 0x00, 0x00, 0x00, 0x00, 0x00, 0x00, 
  0x00, 0x00, 0x00, 0x00, 0x00, 0x00, 0x00, 0x00, 0x00, 0x00, 0x00, 0x00, 
  0x00, 0x00, 0x00, 0x00, 0x00, 0x00, 0x00, 0x00, 0x00, 0x00, 0x00, 0x00, 
  0x00, 0x00, 0x00, 0x00, 0x00, 0x00, 0x00, 0x00, 0x00, 0x00, 0x00, 0x00, 
  0x00, 0x00, 0x00, 0x00, 0x00, 0x00, 0x00, 0x00, 0x00, 0x00, 0x00, 0x00, 
  0x00, 0x00, 0x00, 0x00, 0x00, 0x00, 0x00, 0x00, 0x00, 0x00, 0x00, 0x00, 
  0x00, 0x00, 0x00, 0x00, 0x00, 0x00, 0x00, 0x00, 0x00, 0x00, 0x00, 0x00, 
  0x00, 0x00, 0x00, 0x00, 0x00, 0x00, 0x00, 0x00, 0x00, 0x00, 0x00, 0x00, 
  0x00, 0x00, 0x00, 0x00, 0x00, 0x00, 0x00, 0x00, 0x00, 0x00, 0x00, 0x00, 
  0x00, 0x00, 0x00, 0x00, 0x00, 0x00, 0x00, 0x00, 0x00, 0x00, 0x00, 0x00, 
  0x00, 0x00, 0x00, 0x00, 0x00, 0x00, 0x00, 0x00, 0x00, 0x00, 0x00, 0x00, 
  0x00, 0x00, 0x00, 0x00, 0x00, 0x00, 0x00, 0x00, 0x00, 0x00, 0x00, 0x00, 
  0x00, 0x00, 0x00, 0x00, 0x00, 0x00, 0x00, 0x00, 0x00, 0x00, 0x00, 0x00, 
  0x00, 0x00, 0x00, 0x00, 0x00, 0x00, 0x00, 0x00, 0x00, 0x00, 0x00, 0x00, 
  0x00, 0x00, 0x00, 0x00, 0x00, 0x00, 0x00, 0x00, 0x00, 0x00, 0x00, 0x00, 
  0x00, 0x00, 0x00, 0x00, 0x00, 0x00, 0x00, 0x00, 0x00, 0x00, 0x00, 0x00, 
  0x00, 0x00, 0x00, 0x00, 0x00, 0x00, 0x00, 0x00, 0x00, 0x00, 0x00, 0x00, 
  0x00, 0x00, 0x00, 0x00, 0x00, 0x00, 0x00, 0x00, 0x00, 0x00, 0x00, 0x00, 
  0x00, 0x00, 0x00, 0x00, 0x00, 0x5d, 0x7f, 0x6f, 0x68, 0x27, 0x59, 0x0f, 
  0x00, 0x00, 0x00, 0x31, 0xb5, 0x0c, 0x73, 0x26, 0x00, 0x00, 0x00, 0x00, 
  0x00, 0x34, 0x6c, 0xbc, 0x41, 0x28, 0x47, 0xe9, 0x01, 0x00, 0x00, 0x6a, 
  0xf0, 0x30, 0x45, 0x29, 0x17, 0xe9, 0xff, 0xff, 0xff, 0x69, 0x58, 0xcf, 
  0x5c, 0x26, 0x4b, 0x0c, 0x00, 0x00, 0x00, 0x3f, 0x60, 0xd7, 0x65, 0x26, 
  0xcb, 0xdf, 0xff, 0xff, 0xff, 0x96, 0x24, 0x61, 0x69, 0x2c, 0x08, 0xed, 
  0xff, 0xff, 0xff, 0x74, 0x14, 0x14, 0x61, 0x26, 0xeb, 0xdd, 0xff, 0xff, 
  0xff, 0xc5, 0x50, 0x12, 0x53, 0x26, 0x00, 0x00, 0x00, 0x00, 0x00, 0x59, 
  0xb5, 0x96, 0x48, 0x29, 0x00, 0x00, 0x00, 0x00, 0x00, 0x0d, 0xef, 0x04, 
  0x43, 0x26, 0x35, 0x0d, 0x00, 0x00, 0x00, 0x56, 0x18, 0xdc, 0x73, 0x26, 
  0x00, 0x00, 0x00, 0x00, 0x00, 0x11, 0x5c, 0x0c, 0x6b, 0x27, 0x34, 0xc5, 
  0x00, 0x00, 0x00, 0xd8, 0x8b, 0xa6, 0x4f, 0x28, 0x00, 0x00, 0x00, 0x00, 
  0x00, 0x81, 0x9b, 0xa6, 0x7d, 0x28, 0x00, 0x00, 0x00, 0x00, 0x00, 0xe7, 
  0xa7, 0xcc, 0x74, 0x27, 0x7b, 0x00, 0xdc, 0x1f, 0xfc, 0xef, 0x0f, 0xf0, 
  0xaf, 0x9b, 0xf8, 0xff, 0xff, 0xff, 0xf0, 0x0f, 0xf0, 0xff, 0xff, 0xff, 
  0xff, 0xff, 0x0f, 0xf0, 0xff, 0xff, 0xff, 0xff, 0xff, 0xff, 0xff, 0xff, 
  0x00, 0x00, 0x00, 0x00, 0x00, 0xe7, 0x88, 0xce, 0x69, 0x27, 0xf7, 0xfd, 
  0xff, 0xff, 0xff, 0xec, 0x44, 0x26, 0x6e, 0x27, 0x00, 0x00, 0x00, 0x00, 
  0x00, 0x3a, 0x1d, 0x5c, 0x6f, 0x27, 0x00, 0x00, 0x00, 0x00, 0x00, 0x5e, 
  0x2a, 0x6c, 0x66, 0x27, 0xba, 0x01, 0x00, 0x00, 0x00, 0x23, 0x5b, 0x75, 
  0x49, 0x26, 0x8f, 0x13, 0x00, 0x00, 0x00, 0x49, 0x00, 0x64, 0x5d, 0x25, 
  0xaf, 0xfe, 0xff, 0xff, 0xff, 0x79, 0x17, 0x1c, 0x6c, 0x27, 0x22, 0x10, 
  0x00, 0x00, 0x00, 0xd5, 0x21, 0x6c, 0x40, 0x25, 0xba, 0x12, 0x00, 0x00, 
  0x00, 0xe6, 0x49, 0x78, 0x76, 0x26, 0x6d, 0x0c, 0x00, 0x00, 0x00, 0xd3, 
  0x8f, 0x73, 0x65, 0x27, 0xe9, 0xfb, 0xff, 0xff, 0xff, 0x2c, 0x45, 0x94, 
  0x73, 0x27, 0x2c, 0xfe, 0xff, 0xff, 0xff, 0x14, 0xdf, 0x1d, 0x6f, 0x27, 
  0x00, 0x00, 0x00, 0x00, 0x00, 0x1c, 0xce, 0x44, 0x70, 0x27, 0x3c, 0xfe, 
  0xff, 0xff, 0xff, 0x9e, 0x82, 0x51, 0x65, 0x27, 0xb1, 0x1b, 0x00, 0x00, 
  0x00, 0x68, 0xca, 0xed, 0x7d, 0x26, 0x00, 0x00, 0x00, 0x00, 0x00, 0x81, 
  0xc7, 0x33, 0x70, 0x27, 0xf0, 0x03, 0xdc, 0x01, 0x0c, 0x00, 0x28, 0xcc, 
  0x4f, 0x02, 0x26, 0x12, 0x27, 0x61, 0x00, 0xd0, 0xe7, 0x8c, 0xa4, 0xc7, 
  0xde, 0x77, 0x7c, 0x09, 0x00, 0xdf, 0x08, 0x9c, 0xfc, 0xea, 0x69, 0x75, 
  0xfc, 0x49, 0xf8, 0xa7, 0x70, 0x86, 0x96, 0xf5, 0x7e, 0x00, 0x90, 0x1a, 
  0x5c, 0xb3, 0x22, 0x82, 0x70, 0x59, 0x07, 0x00, 0x49, 0x06, 0x27, 0x81, 
  0x84, 0x21, 0x00, 0x40, 0x34, 0xfc, 0x0b, 0xc6, 0x87, 0x6b, 0x3b, 0x75, 
  0x00, 0x70, 0x13, 0x34, 0x12, 0x84, 0xc8, 0xc2, 0x24, 0x01, 0x00, 0x7f, 
  0x5b, 0xa6, 0x2e, 0xfc, 0xf6, 0x00, 0xb3, 0x7f, 0x2c, 0x31, 0x57, 0xfb, 
  0x53, 0x27, 0x9e, 0x00, 0x00, 0xc4, 0x6c, 0xdd, 0xf1, 0x28, 0x88, 0x7e, 
  0x1a, 0x00, 0x08, 0xfb, 0x35, 0x5e, 0x47, 0xa3, 0x88, 0x1a, 0x7e, 0x26, 
  0xa1, 0x81, 0xfb, 0x5c, 0x1f, 0x58, 0x00, 0x70, 0x72, 0x13, 0xa2, 0xb0, 
  0x5f, 0x80, 0xb0, 0x09, 0xf0, 0x14, 0x0c, 0x00, 0xdb, 0x66, 0x0d, 0x5c, 
  0x66, 0xff, 0xef, 0x34, 0xe2, 0x72, 0xb5, 0x3f, 0x35, 0xf2, 0xff, 0xff, 
  0xff, 0xff, 0xff, 0xff, 0xff, 0xff, 0xff, 0xff, 0xff, 0xff, 0xff, 0x0f, 
  0x30, 0x00, 0xc0, 0x01, 0xa0, 0x02, 0xfa, 0x00, 0x07, 0x00, 0xd8, 0x8a, 
  0xa2, 0xd6, 0xcc, 0x83, 0x4c, 0x24, 0x01, 0xa0, 0x99, 0x18, 0xed, 0x37, 
  0x8c, 0xff, 0xca, 0x13, 0x00, 0x34, 0x17, 0x1e, 0x10, 0xbd, 0xaa, 0xee, 
  0x7c, 0x71, 0xd6, 0x22, 0x74, 0x86, 0x0a, 0xd6, 0x21, 0x00, 0x80, 0x28, 
  0xb3, 0x86, 0x22, 0x78, 0x8d, 0x7f, 0x1f, 0x00, 0x7c, 0x0e, 0x11, 0x66, 
  0x26, 0x4b, 0x94, 0xa2, 0x1c, 0x2c, 0x66, 0x39, 0x27, 0x56, 0x50, 0x0b, 
  0x01, 0x00, 0x2f, 0x0e, 0x51, 0x13, 0xab, 0x22, 0x7f, 0x0b, 0x00, 0xa6, 
  0x32, 0x2e, 0x0e, 0xf6, 0x53, 0x3a, 0x78, 0xee, 0xfc, 0xe4, 0xa9, 0x6a, 
  0xbb, 0x9d, 0x23, 0x00, 0x00, 0xb0, 0xe7, 0x16, 0xc1, 0x64, 0xbf, 0x37, 
  0x01, 0x00, 0xf6, 0xe5, 0x44, 0x0b, 0x65, 0x5f, 0x62, 0x68, 0x19, 0xb8, 
  0xc9, 0xd5, 0x19, 0x49, 0x60, 0x5d, 0x00, 0x40, 0xf8, 0x30, 0x5d, 0x47, 
  0xad, 0x26, 0x92, 0x1f, 0x00, 0xb6, 0x54, 0xda, 0x1a, 0x96, 0x1b, 0xa2, 
  0x14, 0xf7, 0x7d, 0x00, 0xd6, 0x63, 0x74, 0x06, 0x00, 0x38, 0xff, 0xff, 
  0x32, 0x00, 0xf8, 0xff, 0xff, 0xff, 0xff, 0xff, 0xff, 0xff, 0xff, 0xff, 
  0xff, 0xff, 0xff, 0xff, 0xc0, 0xfb, 0xff, 0xff, 0xff, 0x5a, 0x9b, 0x01, 
  0x4a, 0x24, 0x00, 0x00, 0x00, 0x00, 0x00, 0x00, 0x71, 0x00, 0xdc, 0xf5, 
  0xec, 0x3f, 0x8f, 0x5d, 0xcc, 0xd6, 0xc5, 0x74, 0xc3, 0xa2, 0x62, 0x22, 
  0x12, 0xe1, 0xc0, 0xb0, 0x00, 0xf0, 0xff, 0xdf, 0x58, 0xf6, 0xe3, 0x12, 
  0x9c, 0x0b, 0xf0, 0xff, 0xa4, 0x00, 0x00, 0x00, 0x03, 0x00, 0x9c, 0xff, 
  0xff, 0xfb, 0xc3, 0xff, 0xff, 0xff, 0xff, 0xff, 0x00, 0x00, 0x00, 0x00, 
  0x00, 0x00, 0x00, 0x00, 0x00, 0x00, 0x00, 0x00, 0x00, 0x00, 0x06, 0x00, 
  0x08, 0x00, 0x04, 0x00, 0x06, 0x00, 0x00, 0x00, 0x04, 0x00, 0x00, 0x00, 
  0xf0, 0x01, 0x00, 0x00, 0x43, 0x4f, 0x50, 0x31, 0x01, 0x00, 0x10, 0x00, 
  0x08, 0x30, 0x00, 0x00, 0x00, 0x00, 0x06, 0x10, 0x05, 0x00, 0x00, 0x00, 
  0x05, 0x00, 0x00, 0x00, 0x05, 0x00, 0x00, 0x00, 0x02, 0x00, 0x74, 0x00, 
  0x0f, 0x01, 0x01, 0x00, 0x00, 0x40, 0x00, 0x00, 0x00, 0x00, 0x00, 0x00, 
  0x01, 0x40, 0x00, 0x00, 0x00, 0x00, 0x00, 0x00, 0x02, 0x40, 0x00, 0x00, 
  0x00, 0x00, 0x00, 0x00, 0x03, 0x40, 0x00, 0x00, 0x00, 0x00, 0x00, 0x00, 
  0x0b, 0x01, 0x00, 0x00, 0x0c, 0x01, 0x00, 0x00, 0x0a, 0x01, 0x00, 0x00, 
  0x04, 0x01, 0x00, 0x00, 0x06, 0x40, 0x00, 0x00, 0x01, 0x00, 0x00, 0x00, 
  0x05, 0x40, 0x00, 0x00, 0x01, 0x00, 0x00, 0x00, 0x04, 0x40, 0x00, 0x00, 
  0x01, 0x00, 0x00, 0x00, 0x09, 0x01, 0x80, 0xff, 0x05, 0x01, 0x01, 0x00, 
  0x07, 0x01, 0x00, 0x00, 0x00, 0x01, 0x00, 0x00, 0x01, 0x01, 0x00, 0x00, 
  0x03, 0x01, 0x00, 0x00, 0x02, 0x01, 0x00, 0x00, 0x1f, 0x01, 0x01, 0x00, 
  0x10, 0x40, 0x00, 0x00, 0x10, 0x00, 0x00, 0x00, 0x11, 0x40, 0x00, 0x00, 
  0x00, 0x00, 0x00, 0x00, 0x12, 0x40, 0x00, 0x00, 0x00, 0x00, 0x00, 0x00, 
  0x13, 0x40, 0x00, 0x00, 0x00, 0x00, 0x00, 0x00, 0x1b, 0x01, 0x00, 0x00, 
  0x1c, 0x01, 0x00, 0x00, 0x1a, 0x01, 0x00, 0x00, 0x12, 0x01, 0x00, 0x00, 
  0x11, 0x01, 0x00, 0x00, 0x13, 0x01, 0x0f, 0x00, 0x16, 0x40, 0x00, 0x00, 
  0x10, 0x00, 0x00, 0x00, 0x15, 0x40, 0x00, 0x00, 0x10, 0x00, 0x00, 0x00, 
  0x14, 0x40, 0x00, 0x00, 0x10, 0x00, 0x00, 0x00, 0x18, 0x01, 0x80, 0xff, 
  0x14, 0x01, 0x41, 0x00, 0x21, 0x01, 0x00, 0x00, 0x20, 0x01, 0x00, 0x00, 
  0x22, 0x01, 0x00, 0x00, 0x28, 0x01, 0x00, 0x00, 0x20, 0x40, 0x00, 0x00, 
  0xf0, 0x01, 0x00, 0x00, 0x21, 0x40, 0x00, 0x00, 0x20, 0x00, 0x00, 0x00, 
  0x29, 0x01, 0x00, 0x00, 0x22, 0x40, 0x00, 0x00, 0x50, 0x01, 0x00, 0x00, 
  0x23, 0x40, 0x00, 0x00, 0xa0, 0x00, 0x00, 0x00, 0x25, 0x01, 0x00, 0x00, 
  0x26, 0x01, 0x80, 0xff, 0x27, 0x01, 0x7f, 0x00, 0x16, 0x01, 0x01, 0x00, 
  0x15, 0x01, 0x01, 0x00, 0x17, 0x01, 0x0f, 0x00, 0x0d, 0x01, 0x0a, 0x00, 
  0x2d, 0x01, 0x1e, 0x00, 0x24, 0x01, 0x00, 0x00, 0x2f, 0x01, 0x00, 0x00, 
  0x02, 0x00, 0x00, 0x00, 0x00, 0x40, 0x00, 0x00, 0x10, 0x00, 0x00, 0x00, 
  0x04, 0x01, 0x0f, 0x00, 0x06, 0x40, 0x00, 0x00, 0x10, 0x00, 0x00, 0x00, 
  0x05, 0x40, 0x00, 0x00, 0x10, 0x00, 0x00, 0x00, 0x04, 0x40, 0x00, 0x00, 
  0x10, 0x00, 0x00, 0x00, 0x05, 0x01, 0x41, 0x00, 0x10, 0x40, 0x00, 0x00, 
  0x00, 0x00, 0x00, 0x00, 0x20, 0x40, 0x00, 0x00, 0xb0, 0x02, 0x00, 0x00, 
  0x21, 0x40, 0x00, 0x00, 0x50, 0x01, 0x00, 0x00, 0x22, 0x40, 0x00, 0x00, 
  0x10, 0x02, 0x00, 0x00, 0x02, 0x00, 0x00, 0x00, 0x00, 0x40, 0x00, 0x00, 
  0x00, 0x00, 0x00, 0x00, 0x10, 0x40, 0x00, 0x00, 0x10, 0x00, 0x00, 0x00, 
  0x13, 0x01, 0x00, 0x00, 0x16, 0x40, 0x00, 0x00, 0x01, 0x00, 0x00, 0x00, 
  0x15, 0x40, 0x00, 0x00, 0x01, 0x00, 0x00, 0x00, 0x14, 0x40, 0x00, 0x00, 
  0x01, 0x00, 0x00, 0x00, 0x18, 0x01, 0x01, 0x00, 0x14, 0x01, 0x01, 0x00, 
  0x20, 0x40, 0x00, 0x00, 0x10, 0x04, 0x00, 0x00, 0x21, 0x40, 0x00, 0x00, 
  0x30, 0x00, 0x00, 0x00, 0x22, 0x40, 0x00, 0x00, 0x00, 0x04, 0x00, 0x00, 
  0x23, 0x40, 0x00, 0x00, 0x10, 0x00, 0x00, 0x00, 0x17, 0x01, 0x07, 0x00, 
  0x02, 0x00, 0x00, 0x00, 0x00, 0x00, 0xff, 0xff, 0x04, 0x00, 0x04, 0x00, 
  0x04, 0x00, 0x00, 0x00, 0x01, 0x00, 0x00, 0x00, 0x14, 0x00, 0x00, 0x00, 
  0x00, 0x00, 0x0e, 0x00, 0x18, 0x00, 0x14, 0x00, 0x10, 0x00, 0x0c, 0x00, 
  0x08, 0x00, 0x04, 0x00, 0x0e, 0x00, 0x00, 0x00, 0x84, 0x02, 0x00, 0x00, 
  0x10, 0x00, 0x00, 0x00, 0x74, 0x00, 0x00, 0x00, 0x78, 0x00, 0x00, 0x00, 
  0x7c, 0x00, 0x00, 0x00, 0x01, 0x00, 0x00, 0x00, 0x1c, 0x00, 0x00, 0x00, 
  0x00, 0x00, 0x16, 0x00, 0x18, 0x00, 0x00, 0x00, 0x14, 0x00, 0x10, 0x00, 
  0x00, 0x00, 0x00, 0x00, 0x08, 0x00, 0x00, 0x00, 0x04, 0x00, 0x0c, 0x00, 
  0x16, 0x00, 0x00, 0x00, 0x14, 0x00, 0x00, 0x00, 0x14, 0x00, 0x00, 0x00, 
  0x18, 0x00, 0x00, 0x00, 0x18, 0x00, 0x00, 0x00, 0x1c, 0x00, 0x00, 0x00, 
  0x00, 0x00, 0x00, 0x00, 0x03, 0x00, 0x00, 0x00, 0x01, 0x04, 0x01, 0x00, 
  0x00, 0x00, 0x00, 0x00, 0x01, 0x00, 0x00, 0x00, 0x00, 0x00, 0x00, 0x00, 
  0x05, 0x00, 0x00, 0x00, 0x01, 0x00, 0x00, 0x00, 0x02, 0x00, 0x00, 0x00, 
  0x03, 0x00, 0x00, 0x00, 0x04, 0x00, 0x00, 0x00, 0x05, 0x00, 0x00, 0x00, 
  0x01, 0x00, 0x00, 0x00, 0x00, 0x00, 0x00, 0x00, 0x01, 0x00, 0x00, 0x00, 
  0x05, 0x00, 0x00, 0x00, 0x06, 0x00, 0x00, 0x00, 0x84, 0x01, 0x00, 0x00, 
  0x34, 0x01, 0x00, 0x00, 0xf0, 0x00, 0x00, 0x00, 0xb8, 0x00, 0x00, 0x00, 
  0x70, 0x00, 0x00, 0x00, 0x04, 0x00, 0x00, 0x00, 0xa2, 0xfe, 0xff, 0xff, 
  0x10, 0x00, 0x00, 0x00, 0x2c, 0x00, 0x00, 0x00, 0x00, 0x00, 0x00, 0x09, 
  0x4c, 0x00, 0x00, 0x00, 0x94, 0xfe, 0xff, 0xff, 0x08, 0x00, 0x00, 0x00, 
  0x10, 0x00, 0x00, 0x00, 0x01, 0x00, 0x00, 0x00, 0x80, 0xff, 0xff, 0xff, 
  0xff, 0xff, 0xff, 0xff, 0x01, 0x00, 0x00, 0x00, 0x5d, 0x4f, 0xc9, 0x3c, 
  0x21, 0x00, 0x00, 0x00, 0x73, 0x65, 0x72, 0x76, 0x69, 0x6e, 0x67, 0x5f, 
  0x64, 0x65, 0x66, 0x61, 0x75, 0x6c, 0x74, 0x5f, 0x6b, 0x65, 0x72, 0x61, 
  0x73, 0x5f, 0x74, 0x65, 0x6e, 0x73, 0x6f, 0x72, 0x5f, 0x32, 0x34, 0x3a, 
  0x30, 0x00, 0x00, 0x00, 0x02, 0x00, 0x00, 0x00, 0x01, 0x00, 0x00, 0x00, 
  0x01, 0x00, 0x00, 0x00, 0xc8, 0xff, 0xff, 0xff, 0x0c, 0x00, 0x00, 0x00, 
  0x00, 0x00, 0x00, 0x03, 0x24, 0x00, 0x00, 0x00, 0x19, 0x00, 0x00, 0x00, 
  0x6d, 0x61, 0x69, 0x6e, 0x5f, 0x73, 0x70, 0x6c, 0x69, 0x74, 0x5f, 0x31, 
  0x5f, 0x73, 0x63, 0x72, 0x61, 0x74, 0x63, 0x68, 0x5f, 0x66, 0x61, 0x73, 
  0x74, 0x00, 0x00, 0x00, 0x01, 0x00, 0x00, 0x00, 0x20, 0x00, 0x00, 0x00, 
  0x0c, 0x00, 0x10, 0x00, 0x0c, 0x00, 0x0b, 0x00, 0x00, 0x00, 0x04, 0x00, 
  0x0c, 0x00, 0x00, 0x00, 0x0c, 0x00, 0x00, 0x00, 0x00, 0x00, 0x00, 0x03, 
  0x20, 0x00, 0x00, 0x00, 0x14, 0x00, 0x00, 0x00, 0x6d, 0x61, 0x69, 0x6e, 
  0x5f, 0x73, 0x70, 0x6c, 0x69, 0x74, 0x5f, 0x31, 0x5f, 0x73, 0x63, 0x72, 
  0x61, 0x74, 0x63, 0x68, 0x00, 0x00, 0x00, 0x00, 0x01, 0x00, 0x00, 0x00, 
  0x20, 0x00, 0x00, 0x00, 0xcc, 0xff, 0xff, 0xff, 0x10, 0x00, 0x00, 0x00, 
  0x02, 0x00, 0x00, 0x00, 0x00, 0x00, 0x00, 0x03, 0x1c, 0x00, 0x00, 0x00, 
  0x12, 0x00, 0x00, 0x00, 0x6d, 0x61, 0x69, 0x6e, 0x5f, 0x73, 0x70, 0x6c, 
  0x69, 0x74, 0x5f, 0x31, 0x5f, 0x66, 0x6c, 0x61, 0x73, 0x68, 0x00, 0x00, 
  0x01, 0x00, 0x00, 0x00, 0x40, 0x04, 0x00, 0x00, 0x0c, 0x00, 0x14, 0x00, 
  0x10, 0x00, 0x0f, 0x00, 0x08, 0x00, 0x04, 0x00, 0x0c, 0x00, 0x00, 0x00, 
  0x10, 0x00, 0x00, 0x00, 0x01, 0x00, 0x00, 0x00, 0x00, 0x00, 0x00, 0x03, 
  0x24, 0x00, 0x00, 0x00, 0x1b, 0x00, 0x00, 0x00, 0x6d, 0x61, 0x69, 0x6e, 
  0x5f, 0x73, 0x70, 0x6c, 0x69, 0x74, 0x5f, 0x31, 0x5f, 0x63, 0x6f, 0x6d, 
  0x6d, 0x61, 0x6e, 0x64, 0x5f, 0x73, 0x74, 0x72, 0x65, 0x61, 0x6d, 0x00, 
  0x01, 0x00, 0x00, 0x00, 0xf0, 0x01, 0x00, 0x00, 0x00, 0x00, 0x0e, 0x00, 
  0x14, 0x00, 0x10, 0x00, 0x0f, 0x00, 0x00, 0x00, 0x08, 0x00, 0x04, 0x00, 
  0x0e, 0x00, 0x00, 0x00, 0x1c, 0x00, 0x00, 0x00, 0x3c, 0x00, 0x00, 0x00, 
  0x00, 0x00, 0x00, 0x09, 0x54, 0x00, 0x00, 0x00, 0x0c, 0x00, 0x0c, 0x00, 
  0x00, 0x00, 0x00, 0x00, 0x08, 0x00, 0x04, 0x00, 0x0c, 0x00, 0x00, 0x00, 
  0x08, 0x00, 0x00, 0x00, 0x14, 0x00, 0x00, 0x00, 0x01, 0x00, 0x00, 0x00, 
  0x01, 0x00, 0x00, 0x00, 0x00, 0x00, 0x00, 0x00, 0x00, 0x00, 0x00, 0x00, 
  0x01, 0x00, 0x00, 0x00, 0x25, 0xed, 0x06, 0x3c, 0x1b, 0x00, 0x00, 0x00, 
  0x53, 0x74, 0x61, 0x74, 0x65, 0x66, 0x75, 0x6c, 0x50, 0x61, 0x72, 0x74, 
  0x69, 0x74, 0x69, 0x6f, 0x6e, 0x65, 0x64, 0x43, 0x61, 0x6c, 0x6c, 0x5f, 
  0x31, 0x3a, 0x30, 0x00, 0x02, 0x00, 0x00, 0x00, 0x01, 0x00, 0x00, 0x00, 
  0x01, 0x00, 0x00, 0x00, 0x04, 0x00, 0x00, 0x00, 0x6d, 0x61, 0x69, 0x6e, 
  0x00, 0x00, 0x00, 0x00, 0x14, 0x00, 0x00, 0x00, 0x56, 0x65, 0x6c, 0x61, 
  0x20, 0x34, 0x2e, 0x33, 0x2e, 0x30, 0x20, 0x4f, 0x70, 0x74, 0x69, 0x6d, 
  0x69, 0x73, 0x65, 0x64, 0x00, 0x00, 0x00, 0x00, 0x01, 0x00, 0x00, 0x00, 
  0x10, 0x00, 0x00, 0x00, 0x0c, 0x00, 0x10, 0x00, 0x0f, 0x00, 0x04, 0x00, 
  0x00, 0x00, 0x08, 0x00, 0x0c, 0x00, 0x00, 0x00, 0x0c, 0x00, 0x00, 0x00, 
  0x20, 0x00, 0x00, 0x00, 0x00, 0x00, 0x00, 0x20, 0x07, 0x00, 0x00, 0x00, 
  0x65, 0x74, 0x68, 0x6f, 0x73, 0x2d, 0x75, 0x00, 
};
const unsigned int model_int8_vela_tflite_len = 2960;
